// Automatically generated header file
// Date: 2025-05-12 21:19:38.198667
// Quantized model exported from octav_FCMNIST_Aug_BitMnist_4bitsym_width64_64_64_epochs60.pth
// Generated by exportquant.py

#include <stdint.h>

#ifndef BITNETMCU_MODEL_H
#define BITNETMCU_MODEL_H

// Number of layers
#define NUM_LAYERS 4

// Maximum number of activations per layer
#define MAX_N_ACTIVATIONS 128

// Layer: L3
// QuantType: 4bitsym
#define L3_active
#define L3_bitperweight 4
#define L3_incoming_weights 256
#define L3_outgoing_weights 64
const uint32_t L3_weights[] = {
	0x00111000,0x80000000,0x00000000,0x88880000,0x01100088,0x80008800,0x11110000,0x80888000,
	0x11100120,0x01000201,0x11011100,0x10110121,0x11001000,0x08000800,0x00800118,0x88999ba0,
	0x00011098,0x0088bda0,0x08888800,0x218adc90,0x09888881,0x38adc988,0x88989981,0x0dfcaa88,
	0x08900011,0xbec98980,0x08080009,0xbed98800,0x08001888,0x9cda0800,0x10010000,0x9ab90001,
	0x88888000,0x08000000,0x08088001,0x11000100,0x88800811,0x21001110,0x00808012,0x20012221,
	0x80888011,0x12000010,0x88808801,0x23180800,0x00088813,0x32000800,0x01110210,0xaa808890,
	0x01222109,0xcb998888,0x8011188a,0xa88a98a8,0x88889998,0x000999a9,0x88088990,0x82099ba9,
	0x00080889,0x0099aba9,0x00080880,0x09abaa98,0x00880880,0x0999a998,0x88808800,0x98988988,
	0x98888808,0x88988888,0x88888800,0x08888809,0x98980111,0x88000008,0x88982118,0x80800118,
	0x88002210,0x00801221,0x88801108,0x10012221,0x88999980,0x11100221,0x9999a021,0x89880111,
	0x89998022,0x89880000,0x88088801,0x88880088,0x80009900,0x88889888,0x90888011,0x10808800,
	0x88890011,0x10110088,0x89880811,0x11120098,0x98888000,0x10808898,0x8889aa98,0x88888888,
	0x98898899,0x88888988,0x888999a9,0x99999988,0x88899aa9,0x80899888,0x889aaa80,0x80898888,
	0x88998811,0x88090080,0x80988008,0x89999109,0x80080888,0x18808898,0x80800188,0x18000088,
	0x001010a9,0x8a980000,0x01111ab9,0x08808100,0x021029c9,0x18891000,0x11213398,0x80080000,
	0x02213420,0x00888908,0x01223211,0x08099880,0x98122311,0x11110088,0x80000233,0x33321088,
	0x88081123,0x22000088,0x00800122,0x33321080,0x88888823,0x43220880,0x8999abca,0x82221008,
	0x89bbbddc,0x90222211,0x8aaa8889,0x88802212,0x88802189,0x80901112,0x80008899,0x80888000,
	0x00089880,0x88998000,0x00088001,0x09988800,0x00888008,0x89888008,0x00808010,0x00088988,
	0x88000800,0x10009998,0x08989088,0x08889988,0x089aba99,0x99998900,0x888899a9,0x99998808,
	0x11101008,0x99a98011,0x1100089a,0xaba80000,0x110088bd,0xc9880001,0x01089cfe,0xa8000801,
	0x1009bdea,0x02122111,0x108adda1,0x22210001,0x109bb824,0x09a98800,0x08998220,0x9a998001,
	0x08980008,0x80100110,0x00810889,0x00080081,0x00898810,0x0808a998,0x08880118,0x88889981,
	0x08980100,0x10900811,0x00888801,0x10000011,0x01000110,0x00011121,0x10101100,0x80111211,
	0x88800888,0x08888888,0x88888999,0x8a888888,0x88010889,0x88888088,0x8801118b,0xa8988888,
	0x80011218,0x98a90988,0x88998038,0xa8a90880,0x89990048,0xd9800100,0x8800023a,0xca901088,
	0x80111120,0x9ba00008,0x81100018,0xbc900000,0x8000800a,0xc9121110,0x88989aa9,0x82321110,
	0x8899a990,0x11018118,0x89888802,0x11008000,0x88891111,0x00088000,0x88980010,0x08801800,
	0x00000088,0x00000001,0x00000008,0x80000000,0x00008098,0x80001000,0x00188000,0x00000008,
	0x00000210,0x80000800,0x00110001,0x22100888,0x88189022,0x80018998,0x0001328f,0xb0898880,
	0x88132afe,0x10880000,0x8999eff2,0x18801080,0x89bcfc12,0x08000000,0x89bb0108,0x88800000,
	0x88a98088,0x89889880,0x00010000,0x08088888,0x10000880,0x08088800,0x00000800,0x88088800,
	0x88888989,0x80088808,0x88888998,0x88888000,0x00088898,0x00000118,0x80011208,0x80800100,
	0x00232332,0x11008800,0x01233220,0x88099980,0x89808cdf,0xba98a908,0x9bddffb0,0x08880110,
	0x9bdc8231,0x01001211,0x89023180,0x01000100,0x80110888,0x80808800,0x00000108,0x80880800,
	0x00800000,0x08088800,0x88998880,0x088a8088,0x88890889,0x80088888,0x80898080,0x00010008,
	0x00010012,0x11088800,0x00008980,0x2309a980,0x10889980,0x13289b98,0x00800099,0x12209bb8,
	0x88018889,0x83319ba9,0x00889988,0xb1419db8,0x00888018,0xb152dc98,0x01000008,0x9139e900,
	0x01001888,0x018c9110,0x11088808,0x81981110,0x10800080,0x00011100,0x00890088,0x88008800,
	0x01000088,0x80880880,0x11880088,0x88808801,0x10100090,0x00988800,0x00000080,0x00080801,
	0x10100000,0x11111011,0x11089998,0x80010001,0x109abccc,0xbaa99800,0x08acdedd,0xdcbcbb98,
	0x00099bdf,0xfeccaa98,0x18011008,0xa9988088,0x11111235,0x43200001,0x11080001,0x11880801,
	0x11008088,0x88880101,0x00100808,0x88010880,0x00188009,0x80000000,0x00000001,0x00000100,
	0x08900000,0x88880000,0x00088088,0x00008011,0x11001808,0x00900211,0x11101122,0x01112111,
	0x08800808,0x80808000,0x00088808,0x88888880,0x00880800,0x88888980,0x00808888,0x80088898,
	0x08988000,0x80800088,0x88080008,0x08881080,0x08801898,0x88088888,0x08980121,0x10008890,
	0x009bb913,0x10008880,0x1109dffd,0xaa988888,0x0245429a,0x98808000,0x00256663,0x21180008,
	0x80898988,0x00000080,0x889bba90,0x88089000,0x08888180,0x80888001,0x00801110,0x00001800,
	0x00001189,0x9aa98800,0x11111108,0xbbcba900,0x10001223,0x09bed980,0x00988823,0x218bec88,
	0x88889991,0x2219cda8,0x08808aaa,0x02229da8,0x08918899,0x80131aa8,0x00800088,0x99020898,
	0x00898898,0x98128898,0x00088888,0x88108880,0x10808000,0x88800000,0x11808080,0x90008800,
	0x02100000,0x08999080,0x10000808,0x89080000,0x00018088,0x88001101,0x01110100,0x00000100,
	0x80000000,0x00010000,0x00010000,0x00808000,0x01000000,0x88119900,0x01100008,0x88109998,
	0x10101101,0x10089a98,0x00811081,0x09999999,0x08800802,0x2ba9aaa8,0x08800113,0x8eaabb99,
	0x00080103,0xbfb9aa99,0x00000811,0xdc980008,0x01118001,0xba001100,0x11118011,0x8b980088,
	0x00080808,0x0aa9a900,0x00888888,0x089a9888,0x08000011,0x08998880,0x08080010,0x08888800,
	0x80000080,0x08800000,0x00001100,0x00000008,0x08000111,0x10081800,0x08800080,0x80000100,
	0x08808098,0x09088008,0x89901111,0x10008899,0x89a80332,0x21100899,0x8acddec8,0x10800888,
	0x0999bfff,0xc8808808,0x01324410,0x98888000,0x01202331,0x18800000,0x00899a98,0x08888000,
	0x08898088,0x08880080,0x00000000,0x08888888,0x00010808,0x18888988,0x08008808,0x88988000,
	0x08088888,0x88080808,0x88880888,0x00100800,0x80001000,0x81110000,0x08112110,0x11010888,
	0x88222221,0x00080988,0x01223189,0xa0218aa8,0x81110a91,0x3529cca9,0x00008824,0x28bcca89,
	0x80012110,0x9cca8808,0x8880018b,0xaa808000,0x008888aa,0x80808008,0x00899890,0x08900888,
	0x00080888,0x88008800,0x80088088,0x88988888,0x80089088,0x80908988,0x08889898,0x08888880,
	0x00080088,0x80008800,0x00888980,0x00008008,0x00888810,0x00008000,0x80098888,0x88808008,
	0x08988988,0x88888880,0x00880088,0x98888888,0x08089800,0x08989998,0x08808880,0x088099a9,
	0x08888088,0x08889880,0x10880088,0x89908020,0x12211088,0x80001221,0x00232333,0x43433321,
	0x11123234,0x44321000,0x08880088,0x80988980,0x808abbcd,0xccbaa800,0x00099abc,0xbbb99800,
	0x01018889,0xa9980100,0x00088bba,0x98001110,0x0108bba8,0x80122321,0x008acc88,0x11223311,
	0x008abb14,0x42111100,0x018bb922,0x8cfffcb9,0x189a9801,0x8989abb9,0x10898980,0x08111099,
	0x00808808,0x88000000,0x08009801,0x89000800,0x08180800,0x00808801,0x01108008,0x08800801,
	0x01108000,0x10000010,0x10019989,0x80800010,0x00000000,0x00000001,0x10010800,0x88801101,
	0x00080888,0x00008000,0x00000808,0x88888080,0x00000080,0x89800000,0x80080008,0x00880110,
	0x00808800,0x88890110,0x00889808,0x109a8121,0x00188089,0x229dc122,0x00008119,0x129eb111,
	0x8808010a,0x029d8111,0x0890018b,0x00ba0180,0x880011aa,0x38980098,0x801100aa,0x22109988,
	0x001089a9,0x13288888,0x00889889,0x02120000,0x88899999,0x01210800,0x08889998,0x11100080,
	0x01108880,0x80110111,0x10899800,0x01111111,0x10889012,0x09080111,0x00898000,0x00088801,
	0x089a9011,0x08091001,0x00980008,0x88000881,0x08808888,0x09998890,0x08999988,0x09998a80,
	0x88889880,0x09899881,0x00900880,0x10890010,0x08808890,0x32112211,0x88000898,0x24534432,
	0x0800009a,0x98323321,0x0888988c,0xeeb80800,0x08889999,0xaddca980,0x11088989,0x9aaa9881,
	0x88888008,0x88800000,0x88880211,0x01110000,0x00110221,0x80100010,0x80180210,0x00110010,
	0x80088122,0x00100111,0x88988033,0x11100011,0x8998bb13,0x10811221,0x8999ce92,0x00821008,
	0x8aabbdb8,0x08988aa8,0x9aba9988,0x8a9abb99,0x89a80009,0x9aa89889,0x88981109,0x80989808,
	0x88000089,0x88088088,0x88000998,0x80000088,0x08000109,0x00000888,0x88001112,0x00008808,
	0x99998999,0x89899899,0x88888909,0x08898988,0x89999808,0x88899889,0x99898808,0x80088889,
	0x88998908,0x98999898,0x889aa889,0x90889a89,0x88989999,0x98808998,0x80108899,0xba988010,
	0x81211108,0x01010108,0x01221102,0x43111118,0x00010113,0x33212118,0x80088111,0x10101210,
	0x88800889,0x89080210,0x98800009,0x81011210,0x88880000,0x11111008,0x99800880,0x88000088,
	0x00888880,0x08800808,0x80880010,0x80080088,0x80000111,0x02121108,0x88880244,0x54432210,
	0x80001111,0x32210000,0x880008ac,0xdca88000,0x88888808,0x99988888,0x888a8980,0x8088899a,
	0x89898880,0x08889aa9,0x08089800,0x11888aa9,0x88800008,0x88018898,0x08888088,0x88010000,
	0x88808008,0x00088000,0x88888880,0x00809008,0x80800000,0x88808888,0x08888898,0x88888888,
	0x11000800,0x00880000,0x00108881,0x08898000,0x11000081,0x08880801,0x01000000,0x88888980,
	0x01188008,0x018a9998,0x10008009,0x81189998,0x10008889,0xb3219998,0x11888819,0xc2319988,
	0x1088812a,0xc320a980,0x0880000b,0xa319a980,0x0800009a,0x13081000,0x08008aa8,0x10011010,
	0x00889a81,0x10888110,0x889aa801,0x08880110,0x08999001,0x00018801,0x00088010,0x09888001,
	0x89998880,0x00000889,0x99888800,0x00010088,0x90801011,0x00800000,0x80111000,0x01800080,
	0x80108188,0x80009800,0x80198000,0x18018000,0x80098000,0x01221110,0x80000210,0x22121220,
	0x88080112,0x22111110,0x98889a99,0x88001210,0x8100acbd,0xbba88108,0x80108889,0x89999008,
	0x88080800,0x08988888,0x98888808,0x9aaa9888,0x8998980a,0xaaaa8898,0x8999a888,0x9999a989,
	0xa9a98008,0x888899a9,0x99a80118,0x88898999,0x99801100,0x90880899,0x98013309,0x90888899,
	0x800143a9,0x00888889,0x901242b9,0x08809889,0x001342ea,0x10888989,0x022241ea,0x10988888,
	0x032220b9,0x09888888,0x82121098,0x09808908,0x80000108,0x88080800,0x80100110,0x80080010,
	0x98000010,0x08080008,0x88000001,0x00888008,0x98800100,0x00818898,0x99898880,0x88989999,
	0x99999800,0x88088888,0x89888800,0x00080088,0x89880000,0x80000008,0x88880000,0x00000000,
	0x89900801,0x10808000,0x88810021,0x80080121,0x98110108,0x00888221,0x98110088,0x89980331,
	0x90009888,0x80cc1331,0x80088881,0x19fb4321,0x80088812,0x9de82210,0x80100109,0xcc902200,
	0x9011008c,0xbb012210,0x980088ac,0xb8112188,0x999999bc,0x90101089,0x888889a9,0x98808889,
	0x89988809,0x88888888,0x80888088,0x99901108,0x88000080,0x09a01210,0x88808000,0x0ab02210,
	0x89888800,0x1bc02320,0x98998890,0x1ce23210,0x998a9182,0x1fa33218,0x89888080,0xcd332118,
	0x88008889,0xa1321000,0x800088a9,0x12100800,0x00088880,0x11188800,0x88080810,0x80800800,
	0x88101000,0x80800000,0x88001000,0x00890088,0x88010018,0x01880088,0x88800001,0x08000988,
	0x00808898,0x99880080,0x088889aa,0xab980000,0x0809999a,0x8ba81208,0x888998ba,0xac801210,
	0x8088a8cc,0xca810000,0x800890ce,0xd9808080,0x0018009d,0x91110888,0x0108020a,0x22100101,
	0x0008821b,0x80888101,0x80811219,0x99889998,0x00888030,0xa9988998,0x00800031,0x00008998,
	0x01000120,0x10009990,0x00111101,0x80809980,0x00101110,0x01088800,0x08800000,0x00080080,
	0x00100111,0x10101100,0x10088033,0x0a901101,0x00899845,0x9c811110,0x009aba44,0xaa112211,
	0x0089ab33,0xa8200880,0x0888ac23,0xa0209b80,0x80808a82,0x808aaa81,0x00888801,0x88080011,
	0x10011100,0x88001211,0x11211001,0x01132111,0x11008800,0x00888888,0x00880088,0x99babbb8,
	0x08aa8999,0x9898aaa9,0x00999888,0x80809988,0x00899888,0x99888080,0x00888988,0x08880001,
	0x00088889,0x98988000,0x1109aabb,0xbbba9981,0x108abced,0xcbbbaa80,0x00899acb,0xcaa99888,
	0x00880134,0x11110000,0x00900245,0x43100000,0x18900109,0x00088010,0x180008a9,0x88080000,
	0x00000888,0x80000100,0x11100010,0x80000001,0x00980000,0x08800800,0x10880888,0x00018811,
	0x11110088,0x80889810,0x11118801,0x89998800,0x11120010,0x08800010,0x01111211,0x10000010,
	0x08088010,0x11101000,0x00880812,0x11021200,0x08080101,0x32332088,0x80100001,0x08bccdb9,
	0x0001010b,0xdfffffc9,0x00109800,0x188889a9,0x00098981,0x12332220,0x08888889,0x00111121,
	0x88988880,0x00080011,0x80889881,0x08888890,0x00088000,0x88888998,0x00180080,0x10888898,
	0x08808001,0x08088888,0x88889808,0x09889800,0x00808089,0x88000008,0x00080088,0x80000000,
	0x11011010,0x08000101,0x11110110,0x08000100,0x11100001,0x20800001,0x11089881,0x28880981,
	0x08898880,0x22880980,0x0899918b,0x33098980,0x1080018b,0x33980901,0x10111109,0x31aa8811,
	0x11110088,0x30a90001,0x01108881,0x29980001,0x10009802,0x8b812100,0x08898011,0xaa981080,
	0x08800001,0x8aa98880,0x08981001,0x00899880,0x18800100,0x18898001,0x01880011,0x80000111,
	0x000008a9,0x01100800,0x88008bea,0x24188800,0x00119df0,0x638a9980,0x00219fe3,0x61ba9000,
	0x10220ed3,0x5ab80001,0x01132cc3,0x2c028011,0x008118a2,0x09101011,0x08880081,0x88000800,
	0x88000080,0x80888990,0x08080880,0x09808800,0x00088800,0x00010100,0x08880000,0x88088808,
	0x88088880,0x00080000,0x88000008,0x88008880,0x80080808,0x08800800,0x80008880,0x00088000,
	0x01000080,0x08000101,0x00008888,0x88888001,0x00088988,0x88989010,0x08990888,0x80809980,
	0x18988909,0x08088980,0x08988100,0x88018000,0x88888088,0xaa811222,0x89888002,0x8bba1322,
	0x08898982,0x28bb9111,0x01089803,0x209ec980,0x01108881,0x110eeb80,0x01010898,0x122bda80,
	0x01110001,0x211bda80,0x10181001,0x008cb900,0x00000181,0x009a9800,0x00101000,0x18898000,
	0x89880000,0x88999888,0x88800100,0x0089a998,0x88801011,0x0000baa8,0x98020888,0x00009998,
	0x80218000,0x18888998,0x80089880,0x89a80899,0x88990881,0x8a998899,0x89801210,0xa8888000,
	0x98001019,0xa9000000,0x02200819,0x98989088,0x11220329,0x89999888,0x12211420,0x8a080899,
	0x01122300,0x88101899,0x80111210,0x100089a9,0x89000111,0x0889a999,0x89998008,0x89999998,
	0x01008000,0x00080101,0x00808899,0x88088800,0x00889888,0x88888000,0x10098888,0x00000000,
	0x00008000,0x88008800,0x00111101,0x00888880,0x08018a90,0x08088808,0x089ba801,0x10108888,
	0x88012211,0x08800800,0x88045418,0x98088001,0x09bcabba,0x98880100,0x09dfffd8,0x21080800,
	0x10899822,0x10808880,0x11233438,0x80888000,0x01123310,0x81000800,0x00110088,0x88880000,
	0x98988989,0x80080888,0x99880008,0x88000088,0x88022220,0x00011100,0x80222332,0x11200010,
	0x81111331,0x11008800,0x81113440,0xbcaa9988,0x8122222a,0xc89ba988,0x01100109,0x98990088,
	0x8008808a,0xa9000808,0x88088899,0x90889800,0x88818889,0x80888808,0x88888010,0x80898808,
	0x80889888,0x00888888,0x88089880,0x09808988,0x89989988,0x88028889,0x88899888,0x00988999,
	0x00088888,0x80880880,0x80088899,0x89888880,0x08090088,0x90888880,0x00898088,0x08898880,
	0x088a8988,0x88880808,0x00080088,0x98888098,0x01222209,0x88889888,0x01221ad9,0x09088800,
	0x889cff83,0x08880111,0x8bdff863,0x80110122,0x9aa91440,0x01088121,0x88001120,0x00000121,
	0x00000111,0x08880120,0x80100101,0x01000000,0x08009801,0x11110088,0x00008008,0x80008000,
	0x00080800,0x80880000,0x00008888,0x88888008,0x00000000,0x00880000,0x08000000,0x81080000,
	0x08000888,0x00088880,0x801108a9,0xa9888898,0x00132211,0x00088888,0x88813554,0x18000088,
	0x8addcba8,0x88880008,0x9ceffffa,0x80098080,0x89888021,0x18000880,0x00123328,0x88000001,
	0x11111080,0x88000000,0x01000000,0x00888808,0x00001018,0x08888000,0x00000000,0x08008000,
	0x10000000,0x88800000,0x01000080,0x80000000,0x00808808,0x00088810,0x00800000,0x88800000,
	0x08888888,0x00808888,0x08980000,0x88000808,0x08880880,0x00880010,0x88810808,0x88080800,
	0x09a14421,0x08800880,0x8aeffa01,0x10008888,0x09bffffd,0x98888808,0x01110801,0x08000080,
	0x10334530,0x00000880,0x11222088,0x88000880,0x00889998,0x00800800,0x00889980,0x00010000,
	0x00000111,0x10010000,0x00080000,0x08880800,0x01808008,0x80898800,0x08088088,0x00889800,
	0x00890080,0x10808000,0x00881080,0x00009888,0x00880080,0x00118990,0x88101892,0x88110088,
	0x00000801,0xa9328980,0x08898020,0xb8209a88,0x09998129,0xb8289998,0x0990038c,0xd8210899,
	0x008122ac,0xa0320888,0x000119dc,0xa8121800,0x011219dc,0xa0111080,0x00009ab9,0x80111080,
	0x98888888,0x98988888,0x98888000,0x00080088,0x88880898,0x10880000,0x88880880,0x10081000,
	0x88880881,0x00098010,0x88880088,0x80009880,0x88001800,0x98889080,0x89998041,0xa8800180,
	0x9898033a,0x91988800,0x9980250d,0x01881808,0x881135bd,0x00880008,0x811231b9,0x89880080,
	0x81121089,0x99908088,0x80122089,0x98988888,0x88011089,0x88988899,0x99881010,0x00088988,
	0x88880000,0x00880808,0x88001000,0x98980008,0x80100889,0x99000888,0x81111800,0x88889988,
	0x01111000,0x00010008,0x01221100,0x13331220,0x81111088,0x80221210,0x0088808a,0x99802108,
	0x8889808a,0xaa901218,0x99998098,0x9a912088,0x8aaa8001,0x010000aa,0x8aba9a90,0x02210999,
	0x89aa9b99,0x81118999,0x8880a889,0x00889998,0x88899808,0x01888080,0x08998800,0x01088988,
	0x99998988,0x00008899,0x99888800,0x01011188,0x99800100,0x01012108,0x88010000,0x00000000,
	0x98110080,0x08000088,0x80122120,0x00080100,0x81233100,0x10122189,0x81111088,0x12221899,
	0x98808801,0x2109bbaa,0xa9808003,0x19cddaa9,0x99880121,0xabcaa889,0x9908000a,0x99800088,
	0x98008889,0x98001089,0x88088998,0x88001098,0x89888888,0xa9880898,0x89888008,0x90899899,
	0x08808988,0x80888000,0x00800808,0x88000880,0x00100800,0x80089908,0x01118889,0x89998800,
	0x01000880,0x80123232,0x01000889,0x82333431,0x01011219,0xabccbba9,0x02001221,0x8abdffeb,
	0x01100011,0x22109ccb,0x00098088,0x122120a9,0x88800888,0x80121089,0x88888089,0x88000100,
	0x80888888,0x00000001,0x00880000,0x80008010,0x88989998,0x80000010,0x00008088,0x00881000,
	0x01000880,0x11080110,0x00188890,0x12110111,0x00890888,0x21001001,0x08998990,0x11008001,
	0x08a98800,0x11010112,0x09a80988,0x10880012,0x09bbbba0,0x30088011,0x09abeec0,0x42108881,
	0x0801acec,0x23110000,0x082230cc,0x81110008,0x0888118b,0xa0108898,0x8a908889,0x98000088,
	0x8a909888,0x89000888,0x08898008,0x80800880,0x10889888,0x88008000,0x11808808,0x08000000,
	0x00808880,0x00000000,0x00000080,0x80110008,0x00100899,0x80000808,0x00110080,0x01080890,
	0x81100002,0x11000098,0x00080088,0x80101088,0x889aaabd,0x92311198,0x899a9aa8,0x23200898,
	0x88880000,0x22080998,0x88080001,0x20100988,0x00088901,0x08889888,0x00100088,0x00898898,
	0x08111888,0x80899888,0x00000899,0x98888888,0x08011188,0x81108988,0x00808000,0x80088880,
	0x88088888,0x80088880,0x88888808,0x88088088,0x88808088,0x01898880,0x08888808,0x88808888,
	0x08008000,0x11101008,0x08080010,0x10112220,0x80000089,0x80001220,0x888008aa,0xaa898089,
	0x899a9aaa,0xabba9bba,0x88898818,0xabcbddcb,0x01110008,0x8bcedcc9,0x01101113,0x22099aa8,
	0x01110111,0x24421008,0x00111000,0x02234310,0x80018000,0x00233300,0x800888a9,0x89801108,
	0x00001089,0x90211000,0x000100ad,0xb2441888,0x0011009f,0xd45319a8,0x0011128f,0xa5319cb8,
	0x0100021f,0x8629bca8,0x0000021c,0x850bb901,0x0888911a,0x12a98111,0x09808008,0x18981100,
	0x89800000,0x88001080,0x00888088,0x00088800,0x00080088,0x80880000,0x00888008,0x80000008,
	0x80088800,0x00008880,0x08088880,0x88880800,0x00880180,0x80098888,0x00808008,0x88088808,
	0x00880808,0x08800008,0x08880800,0x18800000,0x88888888,0x80008010,0x08800988,0x08800880,
	0x08808988,0x08808000,0x80880009,0x08800808,0x00080000,0x08800008,0x01100018,0x88800888,
	0x8001218a,0x10808008,0x08011afb,0x20889980,0x8800cff4,0x41008980,0x9aaace03,0x31010800,
	0x8abb9800,0x12101211,0x88bb9890,0x02011120,0x88988888,0x10111111,0x00880010,0x10101000,
	0x00008990,0x11000000,0x0088bc91,0x10100000,0x008beb12,0x88009980,0x009de021,0x88899980,
	0x08afc030,0x90880800,0x88af9248,0xb9018800,0x09cb0329,0x90100011,0x88a90210,0x80880081,
	0x88800019,0x90890801,0x88080019,0x90889880,0x89080018,0x99888900,0x08988020,0x88888911,
	0x88888000,0x80888010,0x00080011,0x80980121,0x00808800,0x02101110,0x01180800,0x10111100,
	0x10112232,0x22111101,0x11010008,0x00000800,0x11188800,0x00000001,0x11088080,0x01080880,
	0x20001188,0x80180098,0x10100180,0x08000080,0x10001000,0x18800880,0x10000900,0x08000080,
	0x00888800,0x10001280,0x09900022,0x21211080,0x00800089,0x09ba9a98,0x00008aec,0x09cecba8,
	0x0008bdc0,0x21abaa98,0x108acb90,0x220aa981,0x108aba80,0x310aa801,0x01889812,0x31099011,
	0x89989880,0x08888898,0x99989000,0x00880888,0x98888888,0x90001008,0x88998880,0x00808089,
	0x808989a9,0x80989888,0x8899889a,0xbab9a999,0x01112330,0xaa999999,0x82322233,0x10111118,
	0x01210113,0x11112210,0x80802222,0x10110120,0x99989810,0x80000010,0xa9a99a98,0x01888000,
	0x998899a8,0x00888809,0x98880008,0x08889889,0x88811000,0x00088988,0x88901000,0x00008998,
	0x98989989,0x99889998,0x88888888,0x89888898,0x99880008,0x88880088,0x98808808,0x08888088,
	0x99800888,0x00988888,0x98990880,0x80888089,0x99801008,0x80011089,0x98808898,0x80008880,
	0x88809990,0x00898888,0x88888001,0x09999800,0x88880000,0x9a900010,0x98809acc,0xca811210,
	0x08808aa9,0x12222318,0x80113234,0x65432108,0x01123445,0x22211088,0x98118889,0x80008899,
	0x00011110,0x99990000,0x00000009,0xbcb80010,0x00100011,0xdfb01101,0x01110122,0xff022108,
	0x00801132,0xff320088,0x00001032,0xf9520880,0x88890830,0xd1310800,0x09980010,0x90099880,
	0x88008008,0x00989888,0x88800881,0x08888800,0x00088800,0x08000000,0x00880000,0x08000080,
	0x88000088,0x08808008,0x00008000,0x08888000,0x00088088,0x00881008,0x00800088,0x98000088,
	0x88888898,0x01000889,0x99899988,0x02221088,0x98998898,0x0243118a,0x89888890,0x11331189,
	0x88908908,0x99343118,0x80008889,0xbb264208,0x80100888,0x9c833318,0x81100000,0x8d913208,
	0x80880080,0x9a012089,0x80008889,0x98020898,0x88898088,0x81000888,0x88880808,0x88888800,
	0x88888108,0x88998010,0x98880008,0x88890000,0x88011880,0x88880008,0x88888888,0x08888809,
	0x88888889,0x88988080,0x88888080,0x99988880,0x89998989,0x88a90088,0x88980888,0x08988010,
	0x88800089,0x88a98011,0x88998898,0x80801111,0x89999a99,0x00811001,0x889899a9,0xaaa99a99,
	0x08088098,0x89abbbba,0x01212223,0x30088a99,0x12222322,0x22221899,0x11210899,0x02332108,
	0x00108bb9,0x88011218,0x0088aa00,0x19801218,0x88899011,0x08080108,0x08801200,0x80108080,
	0x10122223,0x22111111,0x11123200,0x10000100,0x01101099,0x00888011,0x1000009a,0x01980011,
	0x0088018a,0x10908800,0x0088120a,0x18800000,0x18801118,0x10000121,0x10000100,0x80000212,
	0x12101100,0x08800111,0x01100010,0x10000811,0x11000000,0x01110980,0x08a80008,0x11089ab9,
	0x09ba9899,0xbbcddec9,0x08accfee,0xdedccca8,0x009abbaa,0xaaab9801,0x00898989,0x99988101,
	0x08001011,0x10000808,0x80008010,0x01080888,0x88888088,0x00000888,0x08800108,0x88898888,
	0x88000801,0x80008008,0x00880880,0x80080800,0x00080800,0x00088000,0x01880880,0x88800080,
	0x00008000,0x80000880,0x01010800,0x00008908,0x08800123,0x31089880,0x88990010,0x8ca99000,
	0x89bcdfff,0xfc980000,0x889bdefe,0xa2100000,0x00080023,0x31018100,0x01023443,0x21100008,
	0x00010010,0x08899000,0x00000001,0x18bba800,0x11100981,0x21abb980,0x11110801,0x30cec900,
	0x11108002,0x40cfd801,0x11210003,0x48efb012,0x11180881,0x48dc0011,0x11000080,0x29b91110,
	0x08888800,0x19901008,0x08980080,0x00000880,0x00808881,0x00000000,0x89808000,0x00008800,
	0x80880088,0x88888880,0x08088808,0x88080980,0x80800808,0x88908880,0x80080080,0x00888800,
	0x88010088,0x88888888,0x80012109,0x80880888,0x80123210,0x80080808,0x80133343,0x11080008,
	0x89980811,0x21000808,0x9befffff,0xb9888800,0x9bdedd90,0x08808018,0x89013332,0x10010100,
	0x01232208,0x08080110,0x11009889,0x88888010,0x00908808,0x88888000,0x00808880,0x88899888,
	0x00808088,0x80800888,0x08808908,0x08800880,0x08888080,0x08110088,0x88800001,0x00000008,
	0x88999888,0x88088888,0x98899998,0x88810888,0x98898988,0x80800008,0x88898800,0x00080008,
	0x99080080,0x08898808,0x80000998,0x10888088,0x801188bd,0x91110088,0x8122228c,0xda80089a,
	0x00122352,0xbb98889a,0x88998233,0x08aa9899,0x98999902,0x18888888,0x88080880,0x18808808,
	0x80010090,0x08001210,0x88001010,0x00113220,0x88001000,0x02232209,0x88800012,0x22110898,
	0x00000009,0x99888008,0x080000ab,0xa8000800,0x010018ce,0xa0010100,0x000019ff,0x80008000,
	0x00002bfe,0x00808800,0x08802bfd,0x00888880,0x08981bfa,0x30010100,0x08800a94,0x40800088,
	0x80889812,0x1a880008,0x08008010,0x9a080101,0x80089008,0x88001010,0x80088080,0x01001100,
	0x08008880,0x00881080,0x08089988,0x80880010,0x08008088,0x00800100,0x00000011,0x00110080,
}; //first channel is topmost bit

// Layer: L5
// QuantType: 4bitsym
#define L5_active
#define L5_bitperweight 4
#define L5_incoming_weights 64
#define L5_outgoing_weights 64
const uint32_t L5_weights[] = {
	0x120180ab,0x892a0bb1,0x41a1b80b,0x11181029,0xa882a1ac,0xdb8808a8,0x28d0021a,0x09629009,
	0x988013a1,0xa00a8398,0x832109c0,0x2baa41a9,0x34190a19,0x923a9833,0x940c8a04,0xc1881985,
	0x9902808b,0x93921eb8,0x8811a822,0x0342a01b,0xa00ca2ab,0x19a18c10,0x88b18920,0x3a024ca9,
	0xa991b290,0x21201329,0x81930498,0xa8808002,0x0981d089,0xc1800808,0x400818e0,0x00a312b1,
	0x10bb9131,0x8aa0a181,0xf12b2aa0,0x502291a8,0x081b38a1,0x320a1228,0xa8822188,0xb90c0a22,
	0xa11a1a00,0xa4a8033a,0x1b18b2a8,0x180900ab,0x28800e94,0x008b900a,0x882aa28b,0x12094431,
	0x89c9ba22,0x0208a109,0x909828c2,0x0208409a,0x400bb102,0x020091c9,0x47880097,0x488adb20,
	0xbbb82933,0x302ba300,0x10820a32,0x98a00213,0x48a11128,0x182c8b08,0x32194b02,0xbb5321b8,
	0x3b8e8099,0x38808080,0x9108b510,0x10809121,0x198090a8,0x08a1a880,0xa9a933db,0x3281938b,
	0x19239830,0x92221a08,0x380a9280,0xf8298029,0x08922930,0x1a01bfb8,0x8989b898,0x119818d1,
	0x881881da,0x8000d228,0x8928a189,0x80ed2118,0x300808a8,0x1ffb38b1,0x03083091,0xba8c401c,
	0x1a9a989b,0x100100a0,0x1289a810,0x28819a38,0x191c388e,0x50f88003,0xb8ba1149,0x01b1809a,
	0x98002302,0x380bb9fb,0x21a8c28a,0x12911191,0xc290ba2e,0xe988d899,0x3201a923,0xa38b1893,
	0x30922018,0x844029a9,0x892b0b21,0x0233b120,0x09a003ed,0x002b00a9,0x18b01b99,0x38102cdb,
	0x8a019391,0x212b881a,0xa1899230,0xc1c29829,0x0920a824,0x81921109,0x11580ad1,0x08cf081a,
	0x01811120,0x0c611b3a,0x83821818,0x803a2824,0xb28a1298,0x2283c209,0x10918019,0x1981d102,
	0x18209890,0x00868a20,0x28a89919,0x0d00a188,0xb859a1b3,0x59b9a168,0x9899cc40,0xa0331918,
	0x202a8990,0xa9882032,0x989a2040,0x0898ac21,0xca089802,0x98941122,0xaa10809b,0x99aa8918,
	0xa99900f3,0x58208133,0x28b18809,0x0ca19022,0xba092d53,0x09822981,0x309a1b09,0x8801139e,
	0x10a3a51c,0xb99008d9,0x1488c293,0xb2280aa3,0xa310d08f,0xf21089f9,0x80948188,0x29008ca5,
	0x220b3918,0xa2900322,0x801bab10,0x99383a2b,0x0a293c91,0x00988841,0x88a0082a,0x19b02880,
	0x8939988a,0x9ba9aa90,0x28993009,0x8b928480,0x92418822,0x08090238,0xc9289192,0xe909aa08,
	0x929948a2,0x14113013,0x0a01a909,0x0c052109,0x3a883a91,0x290a88b0,0x110d9b28,0x22023480,
	0xbc0c938d,0x018318a2,0xa0089210,0x3081193a,0x0a2829a8,0x708a0998,0x9a029300,0x22b88a3a,
	0x80b17c19,0xb148116a,0x0a882889,0x8b8848f9,0x0a089983,0x988b810b,0x9a1a1489,0x08089622,
	0xeb3002b1,0x182b1881,0xf1ae000c,0x82b81b30,0xaa82a808,0xba4a1809,0x8824a881,0x08e0003a,
	0x29101089,0x2b2a1200,0xe8bd9980,0x2220100b,0x0212c882,0xa0082980,0x0138c1d8,0x891fa389,
	0x993003b9,0x990b3a98,0x10a8222a,0x89898c29,0x9b11c881,0xbb082923,0xbb29a20d,0x0a109b18,
	0x21909229,0x1ad1b13c,0x15040a3a,0x981f8113,0x81992393,0x00a0950a,0x2899188d,0x99229029,
	0x210881fa,0xc0c89a4b,0x18390183,0xd83981ba,0x28c011a3,0x02182b93,0xf18a38b0,0x18882d9a,
	0x5390198a,0x19a00989,0x30b808a8,0xa90a83c2,0x8002a9a9,0x88950b11,0xa9e829a8,0x0a649000,
	0x01188c92,0x90e1a853,0x2a090b89,0x2929a8bb,0x99412c82,0xa0110411,0xd991910b,0x09129008,
	0x89281c0d,0x58a08284,0x8880811a,0x1eb89932,0x0a012baa,0x89089005,0x09cb9b98,0x83088708,
	0xa8a11303,0x10800300,0x20942111,0xa2ba8a98,0x08912894,0x0d9b82ba,0x7b10bb18,0x84389111,
	0xbb888ad3,0x39ab8889,0x09c080b9,0x59a8c190,0x08b88051,0xd9383218,0xb2181200,0x0e30119a,
	0x2289108b,0x0b389498,0x8088002a,0xdab82005,0x00601989,0x1a901230,0x580009a9,0xc392b148,
	0x118b8a1a,0xa28da109,0xcc2b11c0,0x2803038a,0x23998019,0x84181983,0xf20a22e0,0x02091880,
	0xc9090899,0xc4ba0102,0x02853081,0x10e39caa,0x199099a1,0xa92c7002,0x0a01b181,0x008a1e1a,
	0x9a902033,0xab9b92ca,0x8211199c,0x90bcb0b3,0xb1122418,0x912e928c,0x80111304,0xb0822084,
	0xbb110398,0x39091908,0x91931010,0xa0b98e80,0x8ab19921,0xa8191cb8,0x4e248a1d,0x1898a032,
	0x1820ca2a,0xaab8a8ca,0x8b0300c0,0x020534c8,0x95018809,0x98a08a08,0x06831183,0xc0180b91,
	0x02203a89,0x809a1c81,0x40bb8908,0x20890c18,0xc831011a,0x9b889200,0xc1d9d141,0x98bd2889,
	0x84181b85,0xa0fcb213,0x1a822c8a,0x2abb81bc,0x8018c81b,0xda382301,0x81aaca00,0xba383b80,
	0x9ab08284,0x29fa9891,0x22ca016a,0x1908801a,0x99889320,0xac0a8628,0xb888a31b,0xb8880108,
	0x3900b99d,0xab908bb2,0x220099b0,0x13a09995,0xc2b19bab,0xb8a40981,0xe2a10382,0x9d320ef8,
	0x2993a0c0,0x88910001,0x81300293,0x80001b83,0x8f182aa1,0x81db2011,0x8c8001c8,0x83ca29b9,
	0x2a10914a,0x80380029,0xd8908183,0x89321801,0x399b0091,0x0593b821,0x991941ca,0x19df0883,
	0xb158028b,0xc18f20eb,0x02013a11,0xa88cc989,0x10a2b00a,0xba8089a9,0xb132a10a,0x1e800c10,
	0x03388310,0x8c309aaa,0x92912a8a,0x121e8088,0x14300289,0x0041938a,0x8c838c08,0x9001e824,
	0x289d2822,0x801a1491,0xf02b2a30,0x09301932,0x2a883a08,0x940111b2,0xa98849d0,0x01ca04ba,
	0x28019361,0x11092f9c,0x21408a84,0xa320a809,0x039a3092,0x1218f9ab,0x0a21902b,0x398c9014,
	0x10020c11,0xa0b30278,0x98285eb1,0x0809cad8,0x0a99a0a7,0x28911029,0x1a308989,0x1a0b0d90,
	0x43112b09,0x80ca1c31,0x10a28aa0,0x910c3a98,0x88025096,0x3aa0b839,0x0188b808,0x1d0d2919,
	0xacc19087,0x122c1209,0x01919a91,0x9b838a99,0x1a2a1150,0xa208211a,0x00209120,0x2811098c,
	0x1a001022,0x001f13e9,0x80380913,0x92011101,0x3198914b,0xf118ad91,0xe0320b80,0x1b8c30c1,
	0x1310b8c8,0x0123b01a,0xb91a0112,0x02d0101d,0x92b90000,0x82008800,0x948112e3,0xa1bf10a9,
	0x01014001,0x393b2bd9,0x81121908,0x0a18c338,0x9081a23c,0xf12a9e00,0xbbe89929,0x110283d3,
	0x04ab4e49,0x8080282c,0x90b92aba,0x1d8828a9,0x9a942610,0x0800800a,0x839e2096,0xc081681b,
	0x1190019e,0xb3d1883b,0x1111e309,0xa2090499,0x1480899e,0x119ba288,0x81a102a0,0x14890a44,
	0x2010db21,0xbb92b90b,0x18890ad1,0x01151393,0xb5112998,0x19218188,0x04a10813,0xf2109c02,
	0xb8818a98,0x889aac2b,0x09050311,0x08285191,0x889db9b8,0x29e3a112,0xa14c9821,0x903c110b,
	0x93acb015,0x80419af0,0xa08a2880,0x2110bc12,0xa9892109,0x308181aa,0x02089218,0x85e72890,
	0x9981a012,0x8cd9cb32,0x05810000,0x00182897,0xba918213,0x001a8c99,0xba00958f,0xca00b090,
	0x80b8100b,0x89002213,0x0829f082,0x048aec30,0x9c0081c0,0x81b120f8,0x0ab38189,0x2909912f,
}; //first channel is topmost bit

// Layer: L7
// QuantType: 4bitsym
#define L7_active
#define L7_bitperweight 4
#define L7_incoming_weights 64
#define L7_outgoing_weights 64
const uint32_t L7_weights[] = {
	0x4589f00c,0x92a89212,0x0188102c,0x4583282d,0x0999b8a1,0x24b819b1,0x88af3211,0x39801d01,
	0x8d2189c2,0x1a000092,0x083d1f0a,0x31181898,0x2208b905,0xd9022a98,0x89400219,0x0d8d80cd,
	0x1090102d,0x122a180b,0xa012b090,0xb92aaa88,0x1910388e,0x3c2c8119,0x9811c2b2,0xc0a08081,
	0x0a3190a9,0x0282980a,0x81808a82,0xc212f0b2,0x100292b2,0xd188b11c,0xe20190ba,0x988c09b0,
	0x8f008888,0x08121830,0xa1288cbc,0x0819fb88,0x32099a21,0x83d2528f,0xc38d9600,0x85a6211d,
	0xa180342a,0x04092989,0x108ab090,0xbc3a9098,0xcc3c308e,0x4a100a0b,0x9c22e1c1,0x3123018a,
	0x8ba912c0,0x131a880a,0xc00aab89,0x3a80ec19,0x323b1213,0x802c82b0,0x13421059,0x00a999e2,
	0xc1209001,0x0910e030,0x31412d2c,0x3b1c3ca8,0x39a929ac,0x9b10083a,0x2109b1a3,0x11b119de,
	0xa48ea981,0xfd1bb422,0x88d11818,0x111003a9,0x18f89130,0x181ea014,0x29090850,0x2e901180,
	0xc8921801,0x9ca898d1,0x300c3882,0x4a3c5088,0x00a3aa10,0x18c18afa,0x21b22a09,0x99821228,
	0x1209098b,0x0ac83919,0xb9e5d8ba,0xd9a98130,0xf89c2929,0x38843280,0x048c9019,0x9b915e30,
	0x09811249,0x05281cad,0x0cc292a1,0xc51dd3bd,0xb80818a1,0x29ba188c,0xf80108a2,0x1b13b00b,
	0x39a94102,0x2bda92aa,0xd02abe20,0x5ab09d80,0x33108193,0x8a81c9c8,0x998cc38b,0x3538eb90,
	0x39ca1b9b,0xba8eb9ba,0x8989baab,0x31484100,0xd8802ab8,0x191920b1,0x590238d2,0xbaa5db21,
	0x9109888a,0x8b929919,0x388d8084,0xb98001a1,0x8811d898,0x811328a0,0x89013299,0x96188420,
	0x80811025,0x800dd82d,0x8b38c02b,0x238a9c9c,0x23103158,0x2b288312,0x1bb8032b,0x8108bc0d,
	0xa1a18300,0x3500ac89,0x083fa218,0x0a99b0d9,0x32301003,0xb89bc901,0xa0301112,0x802299ca,
	0x124019d9,0x218290b0,0x10032081,0xba92a221,0xcb0a209c,0x820b2032,0xf9892ac0,0xaeac88c8,
	0x2300809d,0x840a309b,0xe8d2b209,0xd2a49220,0xc9c90042,0x138b24a4,0x280bb94a,0xaa120f92,
	0xf88c0892,0xbdb3b2d2,0x429f1081,0x39081100,0x09a08931,0x88a0c00c,0x94b42c03,0x1198c088,
	0x30989409,0x08428a22,0x003ab2e8,0x501ab3cc,0x00802a8a,0x89919a1b,0x9cb099c4,0x1904025b,
	0x8a2b9148,0xac021bb1,0x212c2c3b,0x12c02579,0x19899b08,0xb2b01da0,0xbaaa3280,0x031939bc,
	0x40a03991,0x92f025a0,0x991b0088,0x83ca0271,0x20382c28,0x83b108f1,0x11e23988,0x9082a110,
	0x3d0ac88a,0x00a100ca,0x182b2a43,0xa108a013,0x2b801010,0xa029889c,0x99d11808,0x928918a1,
	0x208af28c,0x89892359,0xd1b90181,0xa3020b21,0x9898c214,0x32382992,0x8bba8e98,0x548aa091,
	0x99843980,0x03296989,0xc2a4b8cb,0xc90995a8,0xd4131098,0x1a10028b,0x8805b0a2,0xbb208810,
	0x941208bb,0x13210200,0xe1a41088,0x1a001be9,0x0b90883a,0x8e3ac540,0x22b8d822,0x08989120,
	0x9a22a9b9,0x9831d191,0xa1222d20,0x2010cac9,0x0a829828,0xe10a6802,0x03b81483,0xa5b80401,
	0x00093248,0x0309a1c2,0x18189209,0xeb020281,0x9b1a30c1,0x110fda93,0x1b898893,0x99502be0,
	0x2983cdc1,0x90bc1101,0x220c34a0,0x83123913,0x2a04a9c8,0x9828a81b,0x19900212,0x6ad20b40,
	0xa1289232,0x9a8188ba,0x2d890109,0x998d189a,0x93182131,0x498da010,0x094a233b,0x38d018ac,
	0x081b2041,0xbacab4a1,0x8823080a,0x5a0a988e,0x02bc90ab,0xa0a9a328,0x13299088,0x3d63d808,
	0x8a331010,0x8a812ab3,0x3a281811,0x89a9a200,0x0a830804,0x30dac4a8,0xc0122499,0x0201929a,
	0x18c8010d,0x10132dca,0x81888188,0x2883c833,0x21482aa1,0x010180ab,0x89b18a91,0x034b01aa,
	0x10b19be9,0x09a31802,0x18a991f0,0x18222180,0xa081ce98,0xa9d20099,0x40802bc9,0x9e28b253,
	0x23208c9b,0x28da01d3,0xe1d109ab,0x18e1100b,0xd03e00b2,0x32883802,0x299e8b09,0x19b03808,
	0xc91a2808,0x194ba212,0xe328aa0b,0x3c400c1a,0x484c093b,0x9e113b28,0x2311a803,0x1039b111,
	0x2119e889,0x13ab20e2,0xc1829028,0x42f2011d,0x8bbc9d93,0xa2fea884,0x0e0fa819,0x3c886993,
	0xa688880b,0x0aa82a08,0x8a000209,0xc39a4840,0xa0130218,0x20b33028,0x380a918a,0xcd104b40,
	0x9a8fa832,0x9b9fe82b,0x8319110a,0x22338d01,0x0c22818a,0xa828298b,0x819ba419,0x30e28a19,
	0x11cb8988,0x0e19891a,0xa2a28093,0xf8811b23,0xab119100,0x28511130,0x9aa49ab8,0x018b4981,
	0xa1802981,0x0d30b898,0x90191a41,0xfaaab881,0xc9da1258,0x9a4fa413,0xa8952188,0x389db092,
	0x8a048cd8,0x01150902,0x10c22ca2,0x6a9290a0,0xd8f99004,0xe19d9488,0xe80439d1,0xbdbcd1b0,
	0x10a028b9,0x009000b4,0x11ac21c8,0x50a02000,0x90008e1b,0xa1d800c9,0x11914001,0x0c942311,
	0x88914a8b,0x30089ca8,0xb0c11182,0xb92228f3,0xccb1520e,0xaf29913b,0x09e19ac0,0xd839d101,
	0x890d9ca8,0x22cd8391,0x022d088f,0x0081119c,0x91089041,0x90101188,0x189b114c,0x1eb83082,
	0xb098c930,0xeb89d891,0x2cb11803,0x22390289,0xa8bb0c03,0xa0b08048,0x480820a1,0x3ca0c878,
	0x808ac81a,0xaa8bc10c,0x81a80110,0xa1028c02,0x8b009120,0x033881b2,0x18fc082d,0x34c01aa1,
	0xb2111a08,0xa023123d,0xa0e18098,0x1810c1b9,0x8ed3993a,0x9b080188,0x908aa930,0xad2d88e2,
	0x12d091a8,0xea9920a0,0x18c828a0,0x13101292,0x82149900,0xa1930cf1,0x18f88cb0,0xc9282443,
	0x33a1b283,0x9849c808,0x100d8080,0x21028898,0x0030843a,0x001a8031,0xcd0b0318,0x069181a8,
	0x9322211c,0x88109a99,0x09a32801,0xb82ca9b0,0xf1900129,0x191fa83d,0x900580b2,0x892881ab,
	0x1912a211,0x80281099,0xf9088e22,0x12a9e089,0x10aa0132,0x229d81d2,0xe8d8a109,0x332b90d5,
	0x09a08300,0x13858d18,0x182a0929,0x08182241,0x3cb00b03,0x81abc889,0x928b1808,0xc30a293f,
	0x0bcb041d,0x01e800cb,0x19ba223a,0x62118211,0x21088d11,0x1090a800,0x91c12dac,0xb70020a9,
	0x2318398b,0x328b820b,0xb9911829,0xb920320b,0x8cea3800,0x191ff214,0x021a8038,0x39980f09,
	0x093aa29d,0xb9a2bc0a,0x20591a18,0x28d189b3,0x3881bda1,0x90c349af,0x92d802cb,0xc488130e,
	0x80b8b398,0xa02c8c18,0x922902b2,0x0392ae03,0x0932b2e2,0xa9288810,0x9d1b8139,0xab0c2308,
	0x1088e0a2,0x18ba2d90,0xb821a1b8,0x02219f12,0x9150e290,0x20411a29,0x8b0ca81c,0x09080919,
	0x20298118,0x20321982,0xa1b182a5,0x894108c2,0xc93001b0,0x0a9dc92a,0x99840bd1,0x2d189991,
	0x93801083,0x3b93298c,0x1e118148,0x803d0a9a,0x92928d01,0x18813ba8,0x04990389,0xda110b3e,
	0x0b401d98,0x2113b3a1,0x83809b18,0x2b81220a,0x988b020c,0xa88a02a4,0xb0013a01,0x9ea99083,
	0x11a4c290,0x21cc1080,0xc810bb1b,0x99e0b8e8,0x21318311,0x8910910a,0xaa3db24a,0x833bafa1,
	0xb88188a9,0x11291015,0x00012890,0x2b0191d9,0x8980a5e8,0xdb93d13a,0x92580c01,0x8f080928,
}; //first channel is topmost bit

// Layer: L9
// QuantType: 4bitsym
#define L9_active
#define L9_bitperweight 4
#define L9_incoming_weights 64
#define L9_outgoing_weights 10
const uint32_t L9_weights[] = {
	0x308c892d,0x2a9b0cff,0xd23f2f20,0x0cf92983,0xbc04f6ad,0xaa81952b,0xfc9d1ec4,0x919ab4bf,
	0xb31eaad4,0x339e10a5,0x292bd1be,0x0f4b0b5a,0x3aeebe88,0xa2fdd983,0x4c33f1a5,0x89cc3bb9,
	0x8390384b,0x1bab61b4,0x49adaa11,0x1aeda91c,0x12c98ab8,0xea02322c,0xbe2c281e,0xd82a9853,
	0x01b32aa8,0xa2b9aa3b,0x91939413,0xc99480ac,0x32eab8db,0xaba88b0b,0xd02b835b,0x729cbac8,
	0x8f3ec508,0xf996a39a,0x10281bb9,0xb31b38a0,0x28b929a0,0x01bb28c9,0xbb830cbb,0x99a38b0a,
	0x1aadbbba,0x8480813b,0xbbd8021e,0x98a033bb,0x105b9a3d,0x9894a83b,0xd5b902e8,0x9b0a18bd,
	0x190b0280,0xae71a0da,0x983edb3b,0x21eead2a,0xb024cc5d,0x2bba9b9a,0x83ddee0c,0x883f402c,
	0xea204915,0x39daa9c0,0x4af049f0,0x9012dab6,0xa2a05ad2,0xbad0d132,0x2d0b922a,0xcce80292,
	0x1ea1d0b9,0x0ec2c32a,0xabce1112,0x49a9a5b9,0xb0bdcc04,0x390bf1a3,0xa0102892,0x0433cca2,
	0xbc81bb19,0xdabcbc28,0xe3a382b3,0xb22198b9,0x0d310098,0x04514bd9,0x0a912d99,0xbca2d113,
}; //first channel is topmost bit

#endif
